{"!": 0, "\"": 1, "#": 2, "$": 3, "%": 4, "&": 5, "'": 6, "(": 7, ")": 8, "*": 9, "+": 10, ",": 11, "-": 12, ".": 13, "/": 14, "0": 15, "1": 16, "2": 17, "3": 18, "4": 19, "5": 20, "6": 21, "7": 22, "8": 23, "9": 24, ":": 25, ";": 26, "<": 27, "=": 28, ">": 29, "?": 30, "@": 31, "A": 32, "B": 33, "C": 34, "D": 35, "E": 36, "F": 37, "G": 38, "H": 39, "I": 40, "J": 41, "K": 42, "L": 43, "M": 44, "N": 45, "O": 46, "P": 47, "Q": 48, "R": 49, "S": 50, "T": 51, "U": 52, "V": 53, "W": 54, "X": 55, "Y": 56, "Z": 57, "[": 58, "\\": 59, "]": 60, "^": 61, "_": 62, "`": 63, "a": 64, "b": 65, "c": 66, "d": 67, "e": 68, "f": 69, "g": 70, "h": 71, "i": 72, "j": 73, "k": 74, "l": 75, "m": 76, "n": 77, "o": 78, "p": 79, "q": 80, "r": 81, "s": 82, "t": 83, "u": 84, "v": 85, "w": 86, "x": 87, "y": 88, "z": 89, "{": 90, "|": 91, "}": 92, "~": 93, "\u00a1": 94, "\u00a2": 95, "\u00a3": 96, "\u00a4": 97, "\u00a5": 98, "\u00a6": 99, "\u00a7": 100, "\u00a8": 101, "\u00a9": 102, "\u00aa": 103, "\u00ab": 104, "\u00ac": 105, "\u00ae": 106, "\u00af": 107, "\u00b0": 108, "\u00b1": 109, "\u00b2": 110, "\u00b3": 111, "\u00b4": 112, "\u00b5": 113, "\u00b6": 114, "\u00b7": 115, "\u00b8": 116, "\u00b9": 117, "\u00ba": 118, "\u00bb": 119, "\u00bc": 120, "\u00bd": 121, "\u00be": 122, "\u00bf": 123, "\u00c0": 124, "\u00c1": 125, "\u00c2": 126, "\u00c3": 127, "\u00c4": 128, "\u00c5": 129, "\u00c6": 130, "\u00c7": 131, "\u00c8": 132, "\u00c9": 133, "\u00ca": 134, "\u00cb": 135, "\u00cc": 136, "\u00cd": 137, "\u00ce": 138, "\u00cf": 139, "\u00d0": 140, "\u00d1": 141, "\u00d2": 142, "\u00d3": 143, "\u00d4": 144, "\u00d5": 145, "\u00d6": 146, "\u00d7": 147, "\u00d8": 148, "\u00d9": 149, "\u00da": 150, "\u00db": 151, "\u00dc": 152, "\u00dd": 153, "\u00de": 154, "\u00df": 155, "\u00e0": 156, "\u00e1": 157, "\u00e2": 158, "\u00e3": 159, "\u00e4": 160, "\u00e5": 161, "\u00e6": 162, "\u00e7": 163, "\u00e8": 164, "\u00e9": 165, "\u00ea": 166, "\u00eb": 167, "\u00ec": 168, "\u00ed": 169, "\u00ee": 170, "\u00ef": 171, "\u00f0": 172, "\u00f1": 173, "\u00f2": 174, "\u00f3": 175, "\u00f4": 176, "\u00f5": 177, "\u00f6": 178, "\u00f7": 179, "\u00f8": 180, "\u00f9": 181, "\u00fa": 182, "\u00fb": 183, "\u00fc": 184, "\u00fd": 185, "\u00fe": 186, "\u00ff": 187, "\u0100": 188, "\u0101": 189, "\u0102": 190, "\u0103": 191, "\u0104": 192, "\u0105": 193, "\u0106": 194, "\u0107": 195, "\u0108": 196, "\u0109": 197, "\u010a": 198, "\u010b": 199, "\u010c": 200, "\u010d": 201, "\u010e": 202, "\u010f": 203, "\u0110": 204, "\u0111": 205, "\u0112": 206, "\u0113": 207, "\u0114": 208, "\u0115": 209, "\u0116": 210, "\u0117": 211, "\u0118": 212, "\u0119": 213, "\u011a": 214, "\u011b": 215, "\u011c": 216, "\u011d": 217, "\u011e": 218, "\u011f": 219, "\u0120": 220, "\u0121": 221, "\u0122": 222, "\u0123": 223, "\u0124": 224, "\u0125": 225, "\u0126": 226, "\u0127": 227, "\u0128": 228, "\u0129": 229, "\u012a": 230, "\u012b": 231, "\u012c": 232, "\u012d": 233, "\u012e": 234, "\u012f": 235, "\u0130": 236, "\u0131": 237, "\u0132": 238, "\u0133": 239, "\u0134": 240, "\u0135": 241, "\u0136": 242, "\u0137": 243, "\u0138": 244, "\u0139": 245, "\u013a": 246, "\u013b": 247, "\u013c": 248, "\u013d": 249, "\u013e": 250, "\u013f": 251, "\u0140": 252, "\u0141": 253, "\u0142": 254, "\u0143": 255, "\u0120\u0120": 256, "\u0120\u0120\u0120\u0120": 257, "\u0120\u0120\u0120": 258, "in": 259, "\u0120\u0120\u0120\u0120\u0120\u0120\u0120": 260, "\u0120=": 261, "re": 262, "st": 263, "at": 264, ":\u010a": 265, "se": 266, "or": 267, "de": 268, "on": 269, ")\u010a": 270, "\u0120\u0120\u0120\u0120\u0120\u0120\u0120\u0120": 271, "en": 272, "an": 273, "te": 274, "ti": 275, "\u0120f": 276, "\u0120in": 277, "\u0120c": 278, "al": 279, "\u0120i": 280, "\u0120\u0120\u0120\u0120\u0120\u0120\u0120\u0120\u0120\u0120\u0120": 281, "ur": 282, "\u0120p": 283, "\u0120t": 284, "le": 285, "ar": 286, "\u0120n": 287, "lf": 288, "ge": 289, "self": 290, "ro": 291, "\u0120[": 292, "):\u010a": 293, "er": 294, "\u0120\"": 295, "\u010a\u010a": 296, "\u0120re": 297, "\u0120(": 298, "es": 299, "di": 300, "he": 301, "\u0120for": 302, "ap": 303, "tion": 304, ",\u010a": 305, "ode": 306, "it": 307, "\u0120'": 308, "int": 309, "def": 310, "\u0120if": 311, "\u0120m": 312, "urn": 313, "\u0120self": 314, "co": 315, "turn": 316, "si": 317, "ri": 318, "nt": 319, "_p": 320, "\u0120return": 321, "end": 322, "ue": 323, "\u0120l": 324, "ce": 325, "ate": 326, "\u0120e": 327, "\u0120-": 328, "\u0120\u0120\u0120\u0120\u0120\u0120\u0120\u0120\u0120\u0120\u0120\u0120\u0120\u0120\u0120": 329, "]\u010a": 330, "\u0120s": 331, "\u0120a": 332, "\u0120+": 333, "me": 334, "ran": 335, "ot": 336, "),": 337, "\u0120the": 338, "ati": 339, "ut": 340, "mp": 341, "\u0120{": 342, "ction": 343, "of": 344, "gh": 345, "ul": 346, "um": 347, "ation": 348, "\u0120b": 349, "ath": 350, "ol": 351, "\u0120v": 352, "_n": 353, "\",": 354, "\u0120g": 355, "ing": 356, "op": 357, "igh": 358, "\u0120st": 359, "ac": 360, "\u0120w": 361, "xt": 362, ")\u010a\u010a": 363, "lo": 364, "\u0120==": 365, "li": 366, "rent": 367, "dist": 368, "rint": 369, "art": 370, "00": 371, "and": 372, "\u0120ne": 373, "',": 374, "\u0120ran": 375, "\":": 376, "as": 377, "__": 378, "\u0120def": 379, "id": 380, "_co": 381, "][": 382, "],": 383, "\u0120\u0120\u0120\u0120\u010a": 384, "ent": 385, "rap": 386, "ve": 387, "raph": 388, "un": 389, "ad": 390, "distan": 391, "_c": 392, "ter": 393, "_s": 394, "app": 395, "\u0120#": 396, "urrent": 397, "get": 398, "\u0120range": 399, "ct": 400, "put": 401, "\u0120co": 402, "ted": 403, "\u0120d": 404, "hi": 405, "(self": 406, "_t": 407, "ed": 408, "ces": 409, "\u0120and": 410, "':": 411, "rid": 412, "val": 413, "ne": 414, "ame": 415, "_m": 416, "\u0120ro": 417, "_node": 418, "],\u010a": 419, "distance": 420, "ver": 421, "10": 422, "\u0120T": 423, "ax": 424, "ata": 425, "text": 426, "append": 427, "\u0120<": 428, "\u0120y": 429, "oint": 430, "ity": 431, "ort": 432, "_st": 433, "[i": 434, "_f": 435, "\u0120x": 436, "ist": 437, "\u0120of": 438, "up": 439, "ra": 440, "),\u010a": 441, "ze": 442, "\u0120\u0120\u0120\u0120\u0120\u0120\u0120\u0120\u0120\u0120\u0120\u0120\u0120\u0120\u0120\u0120\u0120\u0120\u0120": 443, "ult": 444, "ord": 445, "ighb": 446, "oftext": 447, "endoftext": 448, "(\"": 449, "\u0120print": 450, "|>": 451, "\u0120node": 452, "<|": 453, "\u0120len": 454, "la": 455, "time": 456, "))\u010a": 457, ".append": 458, "ute": 459, "_in": 460, "(f": 461, "\u0120se": 462, "(p": 463, "ine": 464, "unt": 465, "ight": 466, "ighbor": 467, "res": 468, "\u0120*": 469, "()\u010a": 470, "\u0120current": 471, "]\u010a\u010a": 472, "\u0120to": 473, "ble": 474, "ke": 475, "lse": 476, "om": 477, "\u0120di": 478, "th": 479, "sition": 480, "one": 481, "\u0120path": 482, "rom": 483, "\u0120not": 484, "age": 485, "\u0120else": 486, "_b": 487, "tem": 488, "graph": 489, "\u0120N": 490, "\u0120de": 491, "mport": 492, "que": 493, "ain": 494, "\u0120+=": 495, "))": 496, "data": 497, "ctions": 498, "node": 499, "12": 500, "(c": 501, "isi": 502, ".p": 503, "il": 504, "\u0120max": 505, "osition": 506, "])\u010a": 507, "add": 508, "\u0120is": 509, "otal": 510, "print": 511, "grid": 512, "list": 513, "_path": 514, "\u0120start": 515, "ment": 516, "\u0120con": 517, "\u0120new": 518, "('": 519, "us": 520, "11": 521, "\"\u010a": 522, "ile": 523, "loc": 524, "ind": 525, "est": 526, "()": 527, "\u0120val": 528, "ith": 529, "ch": 530, "sp": 531, "isited": 532, "ations": 533, "\u0120\u0120\u0120\u0120\u0120\u0120\u0120\u0120\u010a": 534, "qu": 535, "ack": 536, "ru": 537, "_id": 538, "\u0120F": 539, "\u0120col": 540, "\u0120op": 541, "os": 542, "len": 543, "dex": 544, "\u0120j": 545, "\u0120graph": 546, "pe": 547, "row": 548, "\u0120__": 549, "iti": 550, "\u0120>": 551, "\u0120res": 552, "(m": 553, "ass": 554, "edge": 555, "rue": 556, "start": 557, "20": 558, "alc": 559, "key": 560, "\u0120C": 561, "])": 562, "_val": 563, "ulate": 564, ".add": 565, "\")\u010a": 566, "15": 567, "\u0120int": 568, "use": 569, "]:\u010a": 570, "ir": 571, "\u0120min": 572, "mple": 573, "el": 574, "}\u010a": 575, "\u0120as": 576, "ates": 577, "_list": 578, "_w": 579, "am": 580, "\u0120num": 581, "\u0120None": 582, "\u0120or": 583, "eight": 584, "\u0120pro": 585, "test": 586, "\u0120visited": 587, "_di": 588, "size": 589, "our": 590, "].": 591, "13": 592, "\u0120[]\u010a": 593, "},\u010a": 594, "ution": 595, "['": 596, "\u0120o": 597, "ask": 598, "_distance": 599, "\u0120row": 600, "\u0120result": 601, "\u0120\u010a": 602, "alculate": 603, "alse": 604, "set": 605, "14": 606, "_data": 607, "utput": 608, "\u0120total": 609, "lif": 610, "ers": 611, "\u0120\u0120\u0120\u0120\u0120\u0120\u0120\u0120\u0120\u0120\u0120\u0120\u0120\u0120\u0120\u0120": 612, "atri": 613, "item": 614, "\u0120end": 615, "all": 616, "\u0120\"\"": 617, "\u0120distance": 618, "ove": 619, "\u0120get": 620, "atrix": 621, "\u0120grid": 622, "\u0120_": 623, "name": 624, "\u0120elif": 625, "lass": 626, "16": 627, "mb": 628, "\u0120list": 629, "et": 630, "\u0120he": 631, "ues": 632, "\u0120whi": 633, "olution": 634, "\u0120True": 635, "queue": 636, "is": 637, "25": 638, "\u0120E": 639, "_time": 640, "_count": 641, "\u0120neighbor": 642, "oints": 643, "\u0120while": 644, "\u0120A": 645, "((": 646, "(n": 647, "les": 648, "__(": 649, "\u0120with": 650, "dge": 651, "ard": 652, "ep": 653, ".\u010a": 654, ")<|": 655, "ck": 656, "import": 657, "\u0120ad": 658, "route": 659, "18": 660, "lit": 661, "\u0120lo": 662, "\u0120S": 663, "class": 664, "():\u010a": 665, "17": 666, "ub": 667, "30": 668, "\u0120<=": 669, "tim": 670, "(s": 671, "erate": 672, "du": 673, "_cost": 674, "\u0120L": 675, "\u0120h": 676, ")]\u010a": 677, "\u0120False": 678, "unction": 679, "\u0120P": 680, "able": 681, "dom": 682, "\u0120line": 683, ".c": 684, "19": 685, "\u0120I": 686, "ase": 687, "\u0120[(": 688, "tex": 689, "ample": 690, "\u010a\u010a\u010a": 691, "([": 692, "ff": 693, "\u0120set": 694, "\u0120find": 695, "arget": 696, "der": 697, "from": 698, "distances": 699, "init": 700, "arent": 701, "split": 702, "24": 703, "core": 704, ".get": 705, "ic": 706, "_to": 707, "\u0120D": 708, "for": 709, "\u010a\u0120\u0120\u0120\u0120\u010a": 710, "im": 711, "\u0120import": 712, "ft": 713, "\u0120ex": 714, "\u0120dire": 715, "itial": 716, ".s": 717, "\u0120edge": 718, "(in": 719, "und": 720, "(grid": 721, "gth": 722, "\",\u010a": 723, "_position": 724, "ork": 725, "\u0120input": 726, "_e": 727, "):": 728, "50": 729, "_re": 730, "_edge": 731, "are": 732, "\u0120R": 733, "ree": 734, "\u0120data": 735, "23": 736, "mm": 737, "hor": 738, "100": 739, "(t": 740, "\u0120/": 741, "\u0120!": 742, "\u0120calculate": 743, "ber": 744, "\u0120!=": 745, "\u0120queue": 746, "ay": 747, "']": 748, "\u0120\"\"\"\u010a": 749, "\u0120{\"": 750, "\u0120G": 751, "\u0120time": 752, "ho": 753, "40": 754, "')\u010a": 755, "\u0120O": 756, "\u0120value": 757, "\u0120par": 758, "_se": 759, "_g": 760, "cted": 761, "ordin": 762, "neighbor": 763, "items": 764, "ty": 765, "result": 766, "ak": 767, "\u0120Ex": 768, "if": 769, "\u0120en": 770, "_state": 771, "28": 772, "ld": 773, "\":\u010a": 774, "main": 775, "\u0120[\u010a": 776, "hortest": 777, "ines": 778, "\u0120\u0120\u0120\u0120\u0120": 779, "cess": 780, "_size": 781, "000": 782, "\u0120r": 783, "_de": 784, "ach": 785, "27": 786, "26": 787, "\u0120an": 788, "\u0120next": 789, "(graph": 790, "left": 791, "99": 792, "\u0120[\"": 793, "\u0120bo": 794, "ls": 795, "stru": 796, "\u0120{'": 797, "33": 798, "':\u010a": 799, "_con": 800, "_x": 801, "je": 802, "\u0120\u0120\u0120\u0120\u0120\u0120\u0120\u0120\u0120\u0120\u0120\u0120\u0120\u0120\u0120\u0120\u0120\u0120\u0120\u0120\u0120\u0120\u0120": 803, "\u0120cont": 804, "gn": 805, "(b": 806, "_l": 807, "ulation": 808, "_ne": 809, "29": 810, "\u0120function": 811, "(co": 812, "uple": 813, "ude": 814, "ob": 815, "hild": 816, "(len": 817, "_pro": 818, "oal": 819, "_y": 820, "\u0120route": 821, "\u0120\u0120\u0120\u0120\u0120\u0120": 822, "\u0120['": 823, "\u0120item": 824, "\u0120us": 825, ".re": 826, "\u0120{\u010a": 827, ".co": 828, "_index": 829, "\u0120cost": 830, "\u0120pre": 831, "\u0120file": 832, "\u0120[[": 833, "37": 834, "date": 835, "work": 836, "[c": 837, "rip": 838, "\u0120from": 839, "\u0120weight": 840, "\u0120key": 841, "ok": 842, "\u0120List": 843, "60": 844, "loat": 845, "roup": 846, "sign": 847, "35": 848, "\u0120distances": 849, "34": 850, "air": 851, "(node": 852, "str": 853, "ordinates": 854, ".t": 855, "ary": 856, "vi": 857, "\u0120Example": 858, "\u0120sum": 859, "ab": 860, "_value": 861, "},": 862, "ities": 863, "_nodes": 864, "\u0120best": 865, "opulation": 866, "pre": 867, "_route": 868, "_dict": 869, "vertex": 870, "ments": 871, "\u0120str": 872, "lock": 873, "ren": 874, "ser": 875, "ource": 876, "\u0120Output": 877, "\u0120target": 878, "red": 879, "\u0120random": 880, "heck": 881, "45": 882, "ords": 883, ".st": 884, "_a": 885, "ound": 886, "\u0120ver": 887, "}\u010a\u010a": 888, "22": 889, "ght": 890, "ari": 891, "od": 892, "\u0120state": 893, "ow": 894, ".m": 895, "\u0120k": 896, "low": 897, "_map": 898, "38": 899, "(x": 900, "[\"": 901, "_v": 902, ".f": 903, "arg": 904, "right": 905, "sion": 906, "36": 907, "\u0120gen": 908, "_len": 909, ")]": 910, "ust": 911, "_matrix": 912, "vel": 913, "lay": 914, "cel": 915, "\u0120un": 916, "ype": 917, "\u0120usage": 918, "\u0120count": 919, "atch": 920, "ject": 921, "\u0120open": 922, "\u0120point": 923, "\u0120nodes": 924, "_point": 925, "\u0120th": 926, "\u0120ch": 927, "_score": 928, "aze": 929, "ors": 930, "oth": 931, "_d": 932, "\u0120position": 933, "\u0120bre": 934, "..": 935, "\u0120direction": 936, "_col": 937, "48": 938, "\u0120->": 939, "da": 940, "fi": 941, "39": 942, "inal": 943, ".in": 944, "user": 945, "ory": 946, "ize": 947, "ess": 948, "ci": 949, "cle": 950, "\u0120enum": 951, "(l": 952, "ents": 953, "_name": 954, "_pos": 955, "')": 956, "\u0120add": 957, "\u0120parent": 958, "47": 959, "ance": 960, "ag": 961, "new": 962, "()\u010a\u010a": 963, "ts": 964, "\u0120break": 965, "\u0120Test": 966, "\u0120{}\u010a": 967, "\u0120enumerate": 968, "(current": 969, "_loc": 970, "stra": 971, "orted": 972, ".pop": 973, "\u0120all": 974, "arch": 975, "ination": 976, "_num": 977, "range": 978, "con": 979, "\u0120solution": 980, "ry": 981, "49": 982, "\u0120al": 983, "\u0120loc": 984, ".split": 985, "80": 986, "sed": 987, "\u0120(\"": 988, "46": 989, "_graph": 990, "\u0120float": 991, "_length": 992, "oin": 993, "other": 994, "move": 995, "\u0120task": 996, "olve": 997, "_set": 998, "tices": 999, "\u0120np": 1000, "(num": 1001, "55": 1002, "ure": 1003, "'\u010a": 1004, "tern": 1005, "))\u010a\u010a": 1006, "\u0120pos": 1007, "]]": 1008, "_r": 1009, "\u0120>=": 1010, "\u0120stack": 1011, "blem": 1012, "(input": 1013, "\u0120[]\u010a\u010a": 1014, "_file": 1015, "cy": 1016, "iz": 1017, "\u0120cel": 1018, ".items": 1019, "\u0120ob": 1020, "_str": 1021, "\u0120main": 1022, "\u0120city": 1023, "prese": 1024, "value": 1025, "\u0120number": 1026, "\u010a\u0120\u0120\u0120\u0120\u0120\u0120\u0120\u0120\u010a": 1027, "mmand": 1028, "90": 1029, "rans": 1030, "_grid": 1031, "idth": 1032, "\u0120comp": 1033, "ror": 1034, "form": 1035, "[:": 1036, "\u0120step": 1037, "_row": 1038, "temp": 1039, "}\"": 1040, "fs": 1041, "21": 1042, "(i": 1043, "(st": 1044, "\u0120M": 1045, "70": 1046, "(row": 1047, "66": 1048, "\u0120%": 1049, "ters": 1050, "\u0120\u0120\u0120\u0120\u0120\u0120\u0120\u0120\u0120\u0120\u0120\u0120\u010a": 1051, "\u0120move": 1052, "\u0120Re": 1053, "\u0120represe": 1054, "75": 1055, "jac": 1056, "ore": 1057, "\u0120:": 1058, "reate": 1059, ".node": 1060, "den": 1061, "\u0120heap": 1062, "twork": 1063, "\u0120name": 1064, "ariable": 1065, "num": 1066, "duct": 1067, "\u0120(-": 1068, "\u0120goal": 1069, "\u0120z": 1070, "_ro": 1071, "ves": 1072, ")):\u010a": 1073, "().": 1074, "_weight": 1075, "\u0120('": 1076, "ef": 1077, "ion": 1078, "78": 1079, ".he": 1080, "\u0120The": 1081, "attern": 1082, "old": 1083, "\u0120In": 1084, "\u0120each": 1085, "che": 1086, "quen": 1087, "\u0120edges": 1088, "[-": 1089, "apac": 1090, "\"]": 1091, "\u0120points": 1092, "lan": 1093, "next": 1094, "44": 1095, "\u0120dep": 1096, ":\",": 1097, ".x": 1098, "\u0120B": 1099, "col": 1100, "update": 1101, ".e": 1102, "out": 1103, "ault": 1104, "_points": 1105, "_he": 1106, "\u0120me": 1107, "ings": 1108, "_of": 1109, "[j": 1110, "_values": 1111, "fe": 1112, "\u0120math": 1113, "order": 1114, "[node": 1115, "oard": 1116, "56": 1117, "inf": 1118, "uil": 1119, "\u0120mo": 1120, ".w": 1121, "[current": 1122, "\u0120shortest": 1123, "join": 1124, "erson": 1125, "per": 1126, "_type": 1127, "\u0120sy": 1128, "ip": 1129, "act": 1130, "\u0120initial": 1131, "._": 1132, "\u0120-=": 1133, "\u0120sub": 1134, "[p": 1135, "\u0120optim": 1136, "imum": 1137, "bs": 1138, "stination": 1139, "(data": 1140, "\u0120sorted": 1141, "\u0120be": 1142, "irst": 1143, "ual": 1144, "lace": 1145, "uild": 1146, "its": 1147, "32": 1148, "_vertex": 1149, "mbda": 1150, "lambda": 1151, "))<|": 1152, "\u0120ra": 1153, "\u0120index": 1154, "}\")\u010a": 1155, "_solution": 1156, "\u0120cell": 1157, "_input": 1158, "\u0120are": 1159, "\u0120le": 1160, "\u0120other": 1161, "\u0120at": 1162, "\u0120conne": 1163, "\u0120output": 1164, ".y": 1165, "\u0120V": 1166, "udent": 1167, "\u0120values": 1168, "tic": 1169, "\u0120represent": 1170, "\u0120nx": 1171, "(start": 1172, "\u0120heapq": 1173, "[x": 1174, "\u0120matrix": 1175, "dict": 1176, ".ran": 1177, "rection": 1178, "76": 1179, "\u0120child": 1180, "(w": 1181, "_city": 1182, "apacity": 1183, "\u0120contin": 1184, "ye": 1185, "_op": 1186, "ast": 1187, "\u0120on": 1188, "88": 1189, "cores": 1190, "uc": 1191, "(e": 1192, "sert": 1193, "\u0120continue": 1194, "\u0120dist": 1195, "[int": 1196, "\u0120can": 1197, "_h": 1198, "edges": 1199, "\u0120si": 1200, "code": 1201, "lot": 1202, "\u0120generate": 1203, "ly": 1204, "lose": 1205, "bot": 1206, "59": 1207, ".nodes": 1208, "ta": 1209, "ses": 1210, "])\u010a\u010a": 1211, "\u0120neighbors": 1212, "\u0120oper": 1213, "31": 1214, "[neighbor": 1215, "ness": 1216, "cell": 1217, "ud": 1218, ".g": 1219, "\u0120'.": 1220, "dule": 1221, "straint": 1222, "ise": 1223, "58": 1224, "\u0120abs": 1225, "mplo": 1226, "79": 1227, "par": 1228, "mploye": 1229, "rior": 1230, "**": 1231, "struction": 1232, "ator": 1233, "tive": 1234, "fo": 1235, "values": 1236, ".\u010a\u010a": 1237, "_neighbor": 1238, ".graph": 1239, "\u0120\"__": 1240, "zz": 1241, "ss": 1242, "ray": 1243, "\u0120parse": 1244, "__\":\u010a": 1245, "_positions": 1246, "structions": 1247, "\u0120\u0120\u0120\u0120\u0120\u0120\u0120\u0120\u0120": 1248, "(int": 1249, "umn": 1250, "\u0120valid": 1251, "]]\u010a": 1252, "\u0120\"\"\"": 1253, "68": 1254, "\u0120U": 1255, "times": 1256, "\u0120id": 1257, "sible": 1258, "\u0120cur": 1259, "\u0120Return": 1260, "uzz": 1261, "rror": 1262, "\u0120vertex": 1263, "py": 1264, "ai": 1265, "we": 1266, "\u0120colle": 1267, "\u0120found": 1268, "77": 1269, "gor": 1270, "_paths": 1271, "\u0120Def": 1272, "Error": 1273, "\u0120results": 1274, ".b": 1275, "array": 1276, "olver": 1277, "_le": 1278, "())\u010a": 1279, "\"\"": 1280, "\u0120dy": 1281, "(file": 1282, "lab": 1283, "(path": 1284, "vertices": 1285, "xp": 1286, "_ch": 1287, "yp": 1288, "\u0120default": 1289, "uzzle": 1290, "'],\u010a": 1291, "\u0120//": 1292, "itness": 1293, "_from": 1294, "team": 1295, "ars": 1296, "losest": 1297, "ool": 1298, "dition": 1299, "pro": 1300, "ency": 1301, "(g": 1302, "rules": 1303, "line": 1304, "=lambda": 1305, "\u0120qu": 1306, "ackage": 1307, "\u0120\u0120\u0120\u0120\u0120\u0120\u0120\u0120\u0120\u0120": 1308, "\"],\u010a": 1309, "sw": 1310, "01": 1311, "\u0120u": 1312, "ig": 1313, "odel": 1314, "42": 1315, "chedule": 1316, "()<|": 1317, "']\u010a": 1318, "ween": 1319, "etween": 1320, "riority": 1321, "eld": 1322, "output": 1323, "house": 1324, "ec": 1325, "lause": 1326, "\u0120directions": 1327, "ven": 1328, "\u0120map": 1329, "cep": 1330, "vai": 1331, "(re": 1332, "41": 1333, "69": 1334, "action": 1335, "\u0120dx": 1336, "\u0120size": 1337, "\u0120collections": 1338, "\u0120rows": 1339, "\u0120score": 1340, "istic": 1341, "ies": 1342, "None": 1343, "path": 1344, "vent": 1345, "\u0120test": 1346, "\u0120coordinates": 1347, "\u0120exp": 1348, "asks": 1349, "_location": 1350, "\u0120paths": 1351, "65": 1352, "quence": 1353, "\u0120command": 1354, "\u0120Define": 1355, ")]\u010a\u010a": 1356, "\u0120char": 1357, "uristic": 1358, "\u0120contain": 1359, "\u0120ele": 1360, "ctionary": 1361, "his": 1362, "_result": 1363, "div": 1364, "ark": 1365, "own": 1366, "ded": 1367, "ong": 1368, "mpty": 1369, "rite": 1370, "input": 1371, "\")\u010a\u010a": 1372, "inations": 1373, "lable": 1374, "True": 1375, "\u0120lines": 1376, "89": 1377, "ating": 1378, "ace": 1379, "\u0120board": 1380, "\u0120right": 1381, "keys": 1382, "\u0120left": 1383, "_sum": 1384, "(v": 1385, "_idx": 1386, "quest": 1387, "ield": 1388, "ram": 1389, ".is": 1390, "\u0120source": 1391, ")\u010a\u010a\u010a": 1392, "\u0120inter": 1393, "(pro": 1394, "rule": 1395, "airs": 1396, "ties": 1397, "43": 1398, "[row": 1399, "\u0120group": 1400, "\u0120representing": 1401, "maining": 1402, "\u0120check": 1403, "itude": 1404, "]['": 1405, "\u0120defaultdict": 1406, ".strip": 1407, "wo": 1408, "_edges": 1409, "_min": 1410, "'],": 1411, "\u0120by": 1412, "lat": 1413, "_start": 1414, "',\u010a": 1415, "\u0120per": 1416, "ket": 1417, ".name": 1418, "ithm": 1419, "gorithm": 1420, ".start": 1421, "\u0120tra": 1422, "\u0120action": 1423, "200": 1424, "\u0120cols": 1425, "ariables": 1426, "\"]\u010a": 1427, "ighbour": 1428, "ount": 1429, ".txt": 1430, "ink": 1431, "stac": 1432, "\u0120iter": 1433, "\u0120length": 1434, "_per": 1435, "idual": 1436, "dividual": 1437, "valid": 1438, "\u0120\u0120\u0120\u0120\u0120\u0120\u0120\u0120\u0120\u0120\u0120\u0120\u0120\u0120\u0120\u0120\u010a": 1439, "\u0120\u0120\u0120\u0120\u0120\u0120\u0120\u0120\u0120\u0120\u0120\u0120\u0120\u0120\u0120\u0120\u0120\u0120\u0120\u0120\u0120\u0120\u0120\u0120\u0120\u0120\u0120": 1440, "ases": 1441, "hip": 1442, "\u0120part": 1443, "vailable": 1444, "label": 1445, "\u0120between": 1446, "(map": 1447, "_max": 1448, "ransition": 1449, ".grid": 1450, "\u0120[-": 1451, "\u0120height": 1452, "over": 1453, "_i": 1454, "57": 1455, "(new": 1456, ").": 1457, "\u0120network": 1458, "\u0120Returns": 1459, "stance": 1460, "\u0120solve": 1461, "\u0120user": 1462, "\u0120spe": 1463, "St": 1464, "hicle": 1465, "term": 1466, "ash": 1467, "(se": 1468, "\u0120that": 1469, "max": 1470, "[(": 1471, "index": 1472, "ger": 1473, "ross": 1474, "]):\u010a": 1475, "\u0120deque": 1476, "_info": 1477, "_dist": 1478, "\u0120ac": 1479, "67": 1480, "ffe": 1481, "\u0120adjac": 1482, "(d": 1483, ".read": 1484, "\u0120var": 1485, "\u0120Initial": 1486, "False": 1487, "_valid": 1488, "verse": 1489, "\u0120trans": 1490, "In": 1491, "\u0120process": 1492, "_conne": 1493, "\u0120ve": 1494, "(max": 1495, "\u0120raise": 1496, "port": 1497, "(neighbor": 1498, "\u0120temp": 1499, "\u0120assign": 1500, "\u0120block": 1501, "\u0120},\u010a": 1502, "\u0120tuple": 1503, ".heapp": 1504, "\u0120destination": 1505, "\u0120base": 1506, "ush": 1507, "mployee": 1508, "ill": 1509, "ilen": 1510, "='": 1511, "qui": 1512, "type": 1513, "\u0120ny": 1514, "98": 1515, "\u0120update": 1516, "location": 1517, "_order": 1518, "\u0120match": 1519, "_code": 1520, "\u0120**": 1521, "assign": 1522, "ilename": 1523, "uccess": 1524, "\u0120steps": 1525, "cond": 1526, "_neighbors": 1527, "ustom": 1528, "ility": 1529, "ress": 1530, "ffic": 1531, "alue": 1532, "ox": 1533, "_range": 1534, "\u0120\".": 1535, "visited": 1536, "(line": 1537, "rc": 1538, "[start": 1539, "rib": 1540, "\u0120order": 1541, "att": 1542, "\u0120dictionary": 1543, "ner": 1544, "ener": 1545, "gle": 1546, "\u0120problem": 1547, "\u0120word": 1548, "\u0120location": 1549, "ange": 1550, ".de": 1551, "ave": 1552, "xf": 1553, "\"{": 1554, "arehouse": 1555, "point": 1556, "\u0120comb": 1557, "\u0120Node": 1558, "current": 1559, "_si": 1560, "\u0120pass": 1561, "enden": 1562, "\u0120Di": 1563, "\"\"\"\u010a": 1564, "ized": 1565, "\u0120sp": 1566, "ice": 1567, "\u0120population": 1568, "xb": 1569, "_shortest": 1570, "_step": 1571, "iven": 1572, "'),": 1573, "ant": 1574, "dint": 1575, "gs": 1576, "\u0120dfs": 1577, "[v": 1578, "\u0120|": 1579, "\u0120q": 1580, ".find": 1581, "lust": 1582, "_li": 1583, "ater": 1584, "mbol": 1585, "lt": 1586, "]][": 1587, "min": 1588, "gest": 1589, "ated": 1590, "\u0120dp": 1591, "tile": 1592, "_line": 1593, "ous": 1594, "[n": 1595, "(a": 1596, "\u0120Graph": 1597, "ump": 1598, "(result": 1599, "85": 1600, "rence": 1601, "utation": 1602, "\u0120((": 1603, "\u0120create": 1604, "dd": 1605, "gram": 1606, "=\"": 1607, "_with": 1608, "ron": 1609, "ateg": 1610, "atus": 1611, "(route": 1612, "\u0120maze": 1613, "gion": 1614, "ward": 1615, "verage": 1616, "\u0120sys": 1617, "rack": 1618, "ative": 1619, "ameters": 1620, "(matrix": 1621, ".edges": 1622, "_rate": 1623, "\u0120build": 1624, "_me": 1625, "ays": 1626, "\u0120final": 1627, "\u0120code": 1628, "64": 1629, "ost": 1630, "_sp": 1631, "[t": 1632, "args": 1633, "_times": 1634, "\u0120items": 1635, "\u0120read": 1636, "als": 1637, ".values": 1638, "ique": 1639, "_counts": 1640, "udok": 1641, "_number": 1642, "gree": 1643, "\")": 1644, "dices": 1645, "unter": 1646, "=True": 1647, "05": 1648, "straints": 1649, "bab": 1650, "\u0120Calculate": 1651, "cies": 1652, "[s": 1653, "udoku": 1654, "\u0120tree": 1655, "uration": 1656, "rice": 1657, "pected": 1658, "())": 1659, "\u0120closest": 1660, "\u0120sele": 1661, "]),": 1662, "_cell": 1663, "\u0120Value": 1664, "\u0120&": 1665, "ens": 1666, "(G": 1667, "ctor": 1668, ".remove": 1669, "sc": 1670, "]))\u010a": 1671, "\u0120routes": 1672, "_height": 1673, ".con": 1674, "jects": 1675, "resh": 1676, "(de": 1677, "oc": 1678, "_population": 1679, "\"],": 1680, "\u0120top": 1681, "ape": 1682, "thod": 1683, "_dep": 1684, "gre": 1685, "\u0120two": 1686, "arest": 1687, "_ob": 1688, "_by": 1689, "cells": 1690, "95": 1691, "riend": 1692, "(ro": 1693, "\u0120\u0120\u0120\u0120\u0120\u0120\u0120\u0120\u0120\u0120\u0120\u0120": 1694, "\u0120first": 1695, "_coordinates": 1696, "The": 1697, "101": 1698, "\u0120Initialize": 1699, "direction": 1700, "\u0120room": 1701, "\u0120sim": 1702, "\u0120product": 1703, "_items": 1704, "_al": 1705, "\u0120}\u010a": 1706, "\u0120Find": 1707, "param": 1708, "area": 1709, "adj": 1710, "\u0120typ": 1711, "\u0120given": 1712, "cur": 1713, "ycle": 1714, "_scores": 1715, "ome": 1716, "tes": 1717, "\u0120Tuple": 1718, "_tree": 1719, "ery": 1720, "fig": 1721, "cept": 1722, "_end": 1723, "sions": 1724, "adjac": 1725, "_routes": 1726, "etwork": 1727, "87": 1728, "_block": 1729, "network": 1730, "\"),": 1731, "place": 1732, "vious": 1733, "\u0120St": 1734, "random": 1735, "(op": 1736, "}\")<|": 1737, "_queue": 1738, "(board": 1739, "\u0120remaining": 1740, "')\u010a\u010a": 1741, "mmon": 1742, "_inter": 1743, "\"),\u010a": 1744, "111": 1745, "_group": 1746, "em": 1747, "\u0120curr": 1748, "\"\u010a\u010a": 1749, "Node": 1750, "\u0120color": 1751, ".randint": 1752, "_par": 1753, "ames": 1754, "02": 1755, "\u0120Y": 1756, "\u0120ar": 1757, "(r": 1758, "_key": 1759, ".index": 1760, "_mo": 1761, "\u0120'#": 1762, "[y": 1763, "_states": 1764, ".time": 1765, "\u0120column": 1766, "\u0120ValueError": 1767, "light": 1768, "\u0120\u0120\u0120\u0120\u0120\u0120\u0120\u0120\u0120\u0120\u0120\u0120\u0120\u0120": 1769, "\u0120pi": 1770, "reshold": 1771, "ook": 1772, "_table": 1773, "\u0120instruction": 1774, "\u0120pattern": 1775, "(min": 1776, "count": 1777, "_pre": 1778, "\u0120adj": 1779, "\u0120\u0120\u0120\u0120\u0120\u0120\u0120\u0120\u0120\u0120\u0120\u0120\u0120": 1780, "jk": 1781, "bers": 1782, "\u0120width": 1783, "62": 1784, "_lo": 1785, "97": 1786, "\u0120Par": 1787, "_coords": 1788, "xc": 1789, "_ve": 1790, "\u0120lat": 1791, "apping": 1792, "\u0120lon": 1793, "08": 1794, "\u0120search": 1795, "ats": 1796, "\u0120possible": 1797, "xF": 1798, "[str": 1799, "\u0120person": 1800, "_comb": 1801, "\u0120log": 1802, "fset": 1803, "liver": 1804, "gment": 1805, "\u0120optimal": 1806, "essage": 1807, "\u0120vertices": 1808, "ools": 1809, "\u0120zip": 1810, "jkstra": 1811, "_move": 1812, "_for": 1813, "jec": 1814, "\u0120Check": 1815, "cles": 1816, "(con": 1817, "No": 1818, "(str": 1819, "kets": 1820, "valu": 1821, "city": 1822, "\u0120sc": 1823, "_item": 1824, "\u0120student": 1825, "61": 1826, "=None": 1827, "List": 1828, "\u0120root": 1829, "300": 1830, "}:": 1831, "total": 1832, "urse": 1833, "section": 1834, "raw": 1835, "110": 1836, "ail": 1837, "\u0120heuristic": 1838, "\u0120form": 1839, "63": 1840, "\u0120it": 1841, "actions": 1842, ".num": 1843, "\\n": 1844, "ordinate": 1845, "(),": 1846, "\u0120This": 1847, "\u0120typing": 1848, "\",\"": 1849, "51": 1850, "(state": 1851, "_comp": 1852, "_and": 1853, "rt": 1854, "tity": 1855, "splay": 1856, "\u0120plt": 1857, "_un": 1858, "\u010a\u0120\u0120\u0120\u0120\u0120\u0120\u0120\u0120\u0120\u0120\u0120\u0120\u010a": 1859, "men": 1860, "\u0120depth": 1861, "\u0120prev": 1862, "ache": 1863, "ns": 1864, "\u0120robot": 1865, "\u0120W": 1866, "(range": 1867, "[u": 1868, "...": 1869, ".d": 1870, "_lines": 1871, "jective": 1872, "\u0120{}\u010a\u010a": 1873, "07": 1874, "_cities": 1875, "_string": 1876, "enerate": 1877, "]],": 1878, "En": 1879, "ied": 1880, "_level": 1881, "_locations": 1882, "_an": 1883, ".id": 1884, "500": 1885, ".parent": 1886, "09": 1887, ")],\u010a": 1888, "'s": 1889, ".keys": 1890, "unc": 1891, "({": 1892, "\u0120obstac": 1893, "\u0120If": 1894, ".\"\"\"\u010a": 1895, "hest": 1896, "\u0120available": 1897, "lauses": 1898, "\u0120second": 1899, "tions": 1900, "lines": 1901, "ake": 1902, ".path": 1903, "(y": 1904, "xa": 1905, "_search": 1906, "(he": 1907, "\u0120dest": 1908, "tail": 1909, "\u0120lab": 1910, "\u0120run": 1911, "\"},\u010a": 1912, "gist": 1913, "layer": 1914, "erge": 1915, "(points": 1916, "\u0120connections": 1917, "mit": 1918, "\u0120based": 1919, "\u0120Create": 1920, "\u0120whe": 1921, "didate": 1922, "\u0120coord": 1923, "_total": 1924, "rect": 1925, "xe": 1926, "_left": 1927, "}\")\u010a\u010a": 1928, "\u0120box": 1929, "52": 1930, "120": 1931, "ili": 1932, "001": 1933, "mory": 1934, "weight": 1935, "\u0120no": 1936, "\u0120positions": 1937, "\u0120any": 1938, "onents": 1939, "zero": 1940, "uel": 1941, "(list": 1942, "_part": 1943, "strip": 1944, "\u0120tasks": 1945, "_distances": 1946, "150": 1947, "_tasks": 1948, "\u0120low": 1949, "\u0120has": 1950, ".write": 1951, "\u0120Testing": 1952, "\u0120\",": 1953, "\u0120last": 1954, "\u0120model": 1955, "_cells": 1956, "tier": 1957, "\u0120algorithm": 1958, "\u0120cities": 1959, "onent": 1960, "_sub": 1961, "\u0120app": 1962, "\u0120plan": 1963, "_exp": 1964, "123": 1965, "_ids": 1966, "ood": 1967, "utes": 1968, "_capacity": 1969, "\u0120car": 1970, "gy": 1971, "\u0120]\u010a": 1972, ".position": 1973, "_ele": 1974, "\u0120hi": 1975, "_j": 1976, "rences": 1977, "'.": 1978, "\u0120we": 1979, ".n": 1980, ".set": 1981, "xtend": 1982, "quired": 1983, ".current": 1984, ":-": 1985, ".ch": 1986, "hape": 1987, "dates": 1988, "oly": 1989, "isit": 1990, "loor": 1991, "ruck": 1992, "_pairs": 1993, "\u0120instructions": 1994, "(di": 1995, "ilities": 1996, "\u0120locations": 1997, "\u0120out": 1998, "\u0120rule": 1999, "endencies": 2000, "_pattern": 2001, "qrt": 2002, "mo": 2003, "uples": 2004, "\u0120pair": 2005, "(filename": 2006, "anage": 2007, "timal": 2008, "_room": 2009, "sen": 2010, "\u0120minimum": 2011, "(maze": 2012, "[index": 2013, "\u0120'__": 2014, "\u0120del": 2015, "\u0120dict": 2016, ".random": 2017, "(point": 2018, "\u0120weights": 2019, "\u0120Get": 2020, "\u0120up": 2021, "rontier": 2022, "hildren": 2023, "(N": 2024, "\u0120\u0120\u0120\u0120\u0120\u0120\u0120\u0120\u0120\u0120\u0120\u0120\u0120\u0120\u0120\u0120\u0120\u0120\u0120\u0120\u0120\u0120\u0120\u0120\u0120\u0120\u0120\u0120\u0120\u0120\u0120\u0120": 2025, "\u0120team": 2026, "(key": 2027, "__':\u010a": 2028, "vers": 2029, "instance": 2030, "\u0120\\": 2031, "ression": 2032, "inary": 2033, "\u0120operation": 2034, "\u0120moves": 2035, "xd": 2036, "03": 2037, "\u0120variables": 2038, "_tra": 2039, "\")<|": 2040, "\u0120H": 2041, "54": 2042, "\u0120rules": 2043, "\u0120label": 2044, "ategory": 2045, "<|startoftext|>": 2046, "<|endoftext|>": 2047}